unsigned char irrigation_model_tflite[] = {
  0x1c, 0x00, 0x00, 0x00, 0x54, 0x46, 0x4c, 0x33, 0x14, 0x00, 0x20, 0x00,
  0x1c, 0x00, 0x18, 0x00, 0x14, 0x00, 0x10, 0x00, 0x0c, 0x00, 0x00, 0x00,
  0x08, 0x00, 0x04, 0x00, 0x14, 0x00, 0x00, 0x00, 0x1c, 0x00, 0x00, 0x00,
  0x98, 0x00, 0x00, 0x00, 0xf0, 0x00, 0x00, 0x00, 0x94, 0x07, 0x00, 0x00,
  0xa4, 0x07, 0x00, 0x00, 0x8c, 0x0c, 0x00, 0x00, 0x03, 0x00, 0x00, 0x00,
  0x01, 0x00, 0x00, 0x00, 0x10, 0x00, 0x00, 0x00, 0x00, 0x00, 0x0a, 0x00,
  0x10, 0x00, 0x0c, 0x00, 0x08, 0x00, 0x04, 0x00, 0x0a, 0x00, 0x00, 0x00,
  0x0c, 0x00, 0x00, 0x00, 0x1c, 0x00, 0x00, 0x00, 0x3c, 0x00, 0x00, 0x00,
  0x0f, 0x00, 0x00, 0x00, 0x73, 0x65, 0x72, 0x76, 0x69, 0x6e, 0x67, 0x5f,
  0x64, 0x65, 0x66, 0x61, 0x75, 0x6c, 0x74, 0x00, 0x01, 0x00, 0x00, 0x00,
  0x04, 0x00, 0x00, 0x00, 0x90, 0xff, 0xff, 0xff, 0x09, 0x00, 0x00, 0x00,
  0x04, 0x00, 0x00, 0x00, 0x08, 0x00, 0x00, 0x00, 0x6f, 0x75, 0x74, 0x70,
  0x75, 0x74, 0x5f, 0x30, 0x00, 0x00, 0x00, 0x00, 0x01, 0x00, 0x00, 0x00,
  0x04, 0x00, 0x00, 0x00, 0x3a, 0xf9, 0xff, 0xff, 0x04, 0x00, 0x00, 0x00,
  0x0c, 0x00, 0x00, 0x00, 0x6b, 0x65, 0x72, 0x61, 0x73, 0x5f, 0x74, 0x65,
  0x6e, 0x73, 0x6f, 0x72, 0x00, 0x00, 0x00, 0x00, 0x02, 0x00, 0x00, 0x00,
  0x34, 0x00, 0x00, 0x00, 0x04, 0x00, 0x00, 0x00, 0xdc, 0xff, 0xff, 0xff,
  0x0c, 0x00, 0x00, 0x00, 0x04, 0x00, 0x00, 0x00, 0x13, 0x00, 0x00, 0x00,
  0x43, 0x4f, 0x4e, 0x56, 0x45, 0x52, 0x53, 0x49, 0x4f, 0x4e, 0x5f, 0x4d,
  0x45, 0x54, 0x41, 0x44, 0x41, 0x54, 0x41, 0x00, 0x08, 0x00, 0x0c, 0x00,
  0x08, 0x00, 0x04, 0x00, 0x08, 0x00, 0x00, 0x00, 0x0b, 0x00, 0x00, 0x00,
  0x04, 0x00, 0x00, 0x00, 0x13, 0x00, 0x00, 0x00, 0x6d, 0x69, 0x6e, 0x5f,
  0x72, 0x75, 0x6e, 0x74, 0x69, 0x6d, 0x65, 0x5f, 0x76, 0x65, 0x72, 0x73,
  0x69, 0x6f, 0x6e, 0x00, 0x0d, 0x00, 0x00, 0x00, 0xa0, 0x06, 0x00, 0x00,
  0x98, 0x06, 0x00, 0x00, 0x48, 0x06, 0x00, 0x00, 0x30, 0x02, 0x00, 0x00,
  0x1c, 0x02, 0x00, 0x00, 0xcc, 0x01, 0x00, 0x00, 0x7c, 0x01, 0x00, 0x00,
  0xac, 0x00, 0x00, 0x00, 0xa4, 0x00, 0x00, 0x00, 0x9c, 0x00, 0x00, 0x00,
  0x94, 0x00, 0x00, 0x00, 0x74, 0x00, 0x00, 0x00, 0x04, 0x00, 0x00, 0x00,
  0xea, 0xf9, 0xff, 0xff, 0x04, 0x00, 0x00, 0x00, 0x60, 0x00, 0x00, 0x00,
  0x0c, 0x00, 0x00, 0x00, 0x08, 0x00, 0x0e, 0x00, 0x08, 0x00, 0x04, 0x00,
  0x08, 0x00, 0x00, 0x00, 0x10, 0x00, 0x00, 0x00, 0x28, 0x00, 0x00, 0x00,
  0x00, 0x00, 0x06, 0x00, 0x08, 0x00, 0x04, 0x00, 0x06, 0x00, 0x00, 0x00,
  0x04, 0x00, 0x00, 0x00, 0x01, 0x00, 0x00, 0x00, 0xea, 0x03, 0x00, 0x00,
  0x0c, 0x00, 0x18, 0x00, 0x14, 0x00, 0x10, 0x00, 0x0c, 0x00, 0x04, 0x00,
  0x0c, 0x00, 0x00, 0x00, 0x1a, 0xd3, 0x29, 0xe8, 0x40, 0x91, 0xef, 0x14,
  0x02, 0x00, 0x00, 0x00, 0x02, 0x00, 0x00, 0x00, 0x04, 0x00, 0x00, 0x00,
  0x06, 0x00, 0x00, 0x00, 0x32, 0x2e, 0x31, 0x39, 0x2e, 0x30, 0x00, 0x00,
  0x56, 0xfa, 0xff, 0xff, 0x04, 0x00, 0x00, 0x00, 0x10, 0x00, 0x00, 0x00,
  0x31, 0x2e, 0x35, 0x2e, 0x30, 0x00, 0x00, 0x00, 0x00, 0x00, 0x00, 0x00,
  0x00, 0x00, 0x00, 0x00, 0x50, 0xf5, 0xff, 0xff, 0x54, 0xf5, 0xff, 0xff,
  0x58, 0xf5, 0xff, 0xff, 0x7e, 0xfa, 0xff, 0xff, 0x04, 0x00, 0x00, 0x00,
  0xc0, 0x00, 0x00, 0x00, 0x60, 0xfc, 0x5d, 0xbf, 0x64, 0x5b, 0x46, 0xbe,
  0x29, 0x9e, 0x4c, 0x3e, 0x35, 0xcf, 0x15, 0xbf, 0x65, 0x6d, 0x73, 0xbe,
  0x24, 0x8d, 0x0b, 0x3f, 0x9f, 0x32, 0x3d, 0xbf, 0xa6, 0xd4, 0x25, 0xbf,
  0x58, 0x63, 0x99, 0x3e, 0xc2, 0x41, 0x3a, 0xbf, 0x5a, 0x5a, 0x05, 0x3f,
  0x12, 0x2d, 0x89, 0x3e, 0x5a, 0xb2, 0x2c, 0xbf, 0xeb, 0xac, 0x76, 0x3e,
  0xc7, 0xb4, 0x1b, 0x3f, 0xc1, 0xe9, 0x60, 0xbf, 0x17, 0xdd, 0xc3, 0x3d,
  0x8c, 0xcf, 0x1a, 0x3e, 0xce, 0xbb, 0xf7, 0xbe, 0xce, 0x8d, 0x13, 0x3f,
  0x78, 0x9b, 0x21, 0xbf, 0x24, 0x02, 0x56, 0xbf, 0x10, 0x39, 0x0b, 0xbd,
  0x52, 0x2f, 0x94, 0x3e, 0x00, 0x2f, 0x55, 0xbf, 0x8d, 0x86, 0x53, 0xbf,
  0xd6, 0x4b, 0x85, 0x3d, 0x02, 0xbd, 0x6a, 0xbf, 0x61, 0x78, 0x93, 0xbe,
  0xa5, 0xff, 0x07, 0xbe, 0xc9, 0x70, 0x7b, 0x3f, 0xe7, 0xf7, 0x84, 0xbe,
  0x2e, 0x26, 0x0f, 0x3f, 0x52, 0x38, 0xbe, 0xbe, 0x41, 0x4e, 0x2c, 0xbe,
  0x15, 0x8b, 0x23, 0x3f, 0x51, 0x75, 0x7a, 0xbf, 0xb8, 0x8f, 0x40, 0xbe,
  0x1f, 0x84, 0x30, 0xbf, 0x45, 0x30, 0x5f, 0xbf, 0x90, 0x72, 0xda, 0xbd,
  0xde, 0xe9, 0x2e, 0xbf, 0xaa, 0x68, 0x73, 0xbe, 0xbf, 0x19, 0x5a, 0xbf,
  0x1c, 0x9b, 0x33, 0x3f, 0x6c, 0xf9, 0x9e, 0xbe, 0x42, 0x0f, 0xb2, 0xbe,
  0xe0, 0x39, 0x47, 0x3f, 0x4a, 0xfb, 0xff, 0xff, 0x04, 0x00, 0x00, 0x00,
  0x40, 0x00, 0x00, 0x00, 0xf9, 0x8e, 0xc0, 0x3e, 0xdf, 0xc6, 0xfd, 0x3e,
  0xef, 0x01, 0x56, 0x3e, 0xc4, 0x97, 0x06, 0x3f, 0xfe, 0xac, 0xe9, 0x3e,
  0xb3, 0x26, 0x0d, 0x3f, 0xbe, 0xa4, 0x12, 0x3f, 0xc2, 0x9f, 0x03, 0x3f,
  0x5f, 0x04, 0xcc, 0x3e, 0xc0, 0x06, 0x14, 0x3f, 0x49, 0x20, 0x31, 0x3e,
  0xb9, 0x2d, 0xeb, 0x3e, 0x67, 0xe4, 0x21, 0x3f, 0x1d, 0xfd, 0x0e, 0x3f,
  0x99, 0xe0, 0xc2, 0x3e, 0x9c, 0x33, 0xfc, 0x3e, 0x96, 0xfb, 0xff, 0xff,
  0x04, 0x00, 0x00, 0x00, 0x40, 0x00, 0x00, 0x00, 0x4a, 0x86, 0xdb, 0x3e,
  0x22, 0xff, 0xcb, 0x3e, 0x15, 0xe7, 0x4a, 0xbd, 0xd6, 0x0c, 0x00, 0x3d,
  0xc2, 0xe3, 0xdf, 0x3e, 0xa5, 0xdb, 0xd7, 0x3e, 0x26, 0x9c, 0xbf, 0x3e,
  0xa9, 0x0f, 0x90, 0xbd, 0x5f, 0x5a, 0xe0, 0xbd, 0xa1, 0x45, 0xbb, 0xbd,
  0xac, 0x23, 0xc5, 0x3e, 0x58, 0xed, 0xcf, 0x3e, 0x0d, 0xb5, 0x62, 0xbd,
  0xec, 0xda, 0x41, 0xbd, 0x46, 0xcb, 0x9e, 0xbd, 0x41, 0x62, 0x9a, 0xbd,
  0xe2, 0xfb, 0xff, 0xff, 0x04, 0x00, 0x00, 0x00, 0x04, 0x00, 0x00, 0x00,
  0x29, 0xef, 0x97, 0x3e, 0xf2, 0xfb, 0xff, 0xff, 0x04, 0x00, 0x00, 0x00,
  0x00, 0x04, 0x00, 0x00, 0x1d, 0xf9, 0x13, 0x3f, 0x76, 0x08, 0x55, 0x3e,
  0x8e, 0x5c, 0x91, 0x3e, 0x13, 0xb1, 0x3c, 0x3f, 0x70, 0xc1, 0xb3, 0x3e,
  0xc4, 0x9e, 0x1d, 0x3f, 0xbb, 0xa9, 0x7b, 0x3e, 0xce, 0x49, 0xa0, 0x3e,
  0x5b, 0xa5, 0x17, 0x3f, 0x9c, 0x5f, 0x67, 0x3f, 0x6a, 0x57, 0x1d, 0xbf,
  0xe1, 0x77, 0x44, 0x3f, 0x66, 0x92, 0x28, 0x3f, 0x3b, 0xe6, 0x05, 0x3f,
  0x80, 0xa5, 0xfd, 0x3e, 0xcc, 0x0f, 0x9c, 0x3e, 0x99, 0x9f, 0x56, 0x3f,
  0x3b, 0x85, 0x5a, 0x3f, 0x8a, 0xd7, 0xf4, 0x3e, 0xaf, 0xc3, 0xfc, 0x3e,
  0x95, 0xe3, 0xf2, 0x3d, 0xf7, 0x5f, 0x19, 0x3f, 0xc9, 0x0d, 0x5e, 0x3e,
  0x63, 0x49, 0x4c, 0x3f, 0x2a, 0x8a, 0x39, 0x3e, 0xe3, 0x38, 0x53, 0x3f,
  0x90, 0x9b, 0xd5, 0xbd, 0xb6, 0x88, 0xd0, 0x3e, 0x96, 0x71, 0x84, 0x3e,
  0x17, 0xed, 0x67, 0x3e, 0xc6, 0x6b, 0xb8, 0x3d, 0x68, 0x2e, 0x56, 0x3f,
  0xb7, 0xbf, 0xb5, 0x3e, 0x13, 0x4c, 0x91, 0xbe, 0x8d, 0x89, 0x8f, 0x3e,
  0x41, 0x3e, 0xab, 0x3e, 0xb6, 0x38, 0x9d, 0xbe, 0x66, 0x9a, 0x99, 0x3e,
  0xe4, 0xd4, 0x55, 0xbe, 0xb3, 0x4a, 0x57, 0xbb, 0x04, 0xe3, 0xc4, 0xbe,
  0xfb, 0x1b, 0x8d, 0xbe, 0xdf, 0x84, 0xcd, 0x3d, 0x7d, 0x34, 0x1e, 0x3e,
  0x57, 0x64, 0xb7, 0xbe, 0xd8, 0xa6, 0x38, 0xbf, 0x89, 0x9e, 0x9d, 0x3e,
  0xe4, 0xb3, 0xb4, 0x3e, 0x4a, 0x94, 0xaf, 0x3e, 0xc5, 0x66, 0x61, 0xbe,
  0xdc, 0x04, 0x92, 0xbe, 0xe4, 0xfb, 0x29, 0x3e, 0x47, 0xfb, 0xe6, 0x3e,
  0x84, 0x50, 0x83, 0xbe, 0x9d, 0xa4, 0xa6, 0x3b, 0x51, 0x98, 0x23, 0xbe,
  0xbb, 0xac, 0xc9, 0x3e, 0xce, 0x54, 0x44, 0x3e, 0xa4, 0x2d, 0x6c, 0x3f,
  0x12, 0x2c, 0x3a, 0xbc, 0xe0, 0xab, 0xf3, 0xbe, 0x13, 0x2e, 0x50, 0xbd,
  0xab, 0x3c, 0xf4, 0x3d, 0x72, 0xcd, 0x06, 0x3e, 0x6a, 0x33, 0x15, 0x3f,
  0xd0, 0x15, 0x23, 0x3f, 0x6b, 0x4e, 0xb2, 0x3d, 0x11, 0x6d, 0x3a, 0x3f,
  0x46, 0x79, 0x23, 0x3f, 0x39, 0xfc, 0x3b, 0x3f, 0xdc, 0x31, 0x7f, 0x3e,
  0xec, 0x10, 0x14, 0x3f, 0x93, 0x71, 0x23, 0x3f, 0x52, 0x97, 0xe6, 0x3e,
  0xc1, 0x59, 0x01, 0xbf, 0xe8, 0xbe, 0x25, 0x3f, 0x6a, 0xe4, 0x82, 0x3e,
  0x00, 0x36, 0xf3, 0x3e, 0x22, 0xfb, 0x25, 0x3f, 0xfe, 0x33, 0x0a, 0x3f,
  0xb8, 0x09, 0xa1, 0x3e, 0x1c, 0x15, 0x45, 0x3f, 0x98, 0x9d, 0x1b, 0x3f,
  0xd7, 0x8f, 0x68, 0x3f, 0xff, 0x37, 0xdf, 0x3e, 0xfc, 0x6d, 0x5b, 0x3f,
  0x44, 0x26, 0x7d, 0x3e, 0x3e, 0x28, 0xdf, 0x3e, 0x8f, 0x9e, 0xaa, 0x3e,
  0xb5, 0xe7, 0x04, 0x3f, 0xb3, 0x75, 0x45, 0xbf, 0x92, 0xc9, 0x3f, 0x3e,
  0xfd, 0xbb, 0x0d, 0x3f, 0x31, 0x8e, 0x17, 0x3f, 0xba, 0x3e, 0x1e, 0x3e,
  0x1c, 0x25, 0x38, 0x3f, 0xf0, 0x8c, 0x88, 0x3e, 0x36, 0x54, 0xce, 0x3e,
  0x37, 0xbb, 0x2a, 0x3e, 0x26, 0x90, 0xee, 0x3e, 0x05, 0xe5, 0x22, 0x3f,
  0x2c, 0x8a, 0x36, 0x3f, 0x8f, 0xab, 0xa2, 0x3e, 0xc7, 0x9a, 0x54, 0x3f,
  0x86, 0x6c, 0x32, 0x3f, 0xf7, 0x45, 0xa5, 0x3e, 0x1b, 0x8f, 0x3a, 0xbf,
  0x99, 0x79, 0xe1, 0x3d, 0x3a, 0xbf, 0x08, 0x3f, 0xfd, 0xbd, 0x6d, 0x3f,
  0x89, 0x9c, 0x32, 0x3f, 0xc7, 0xe6, 0xa6, 0x3e, 0x12, 0x71, 0xf8, 0x3d,
  0xae, 0x84, 0xbb, 0xbe, 0xbf, 0x9f, 0xe2, 0xbe, 0xcb, 0xec, 0x99, 0xbd,
  0xd7, 0xa2, 0x21, 0x3e, 0xc0, 0x69, 0x81, 0x3e, 0xdc, 0x3b, 0x85, 0xbe,
  0xd6, 0x35, 0x82, 0xbe, 0x2f, 0xf6, 0x2c, 0x3e, 0x47, 0x63, 0x37, 0xbc,
  0x34, 0x64, 0xa6, 0x3d, 0xb2, 0xfc, 0x2a, 0x3e, 0xe0, 0x00, 0xae, 0xbe,
  0xad, 0xbd, 0x92, 0x3e, 0xa6, 0xef, 0xe2, 0x3e, 0x47, 0x00, 0x05, 0x3f,
  0x15, 0x0b, 0xdf, 0x3d, 0x30, 0xcf, 0xf8, 0xbd, 0xd4, 0x59, 0x95, 0xbd,
  0x42, 0x4d, 0xf8, 0xbe, 0x71, 0x43, 0x82, 0x3e, 0x89, 0xa9, 0xd6, 0xbc,
  0xdc, 0x7e, 0x54, 0xbe, 0x12, 0xf4, 0xd3, 0x3d, 0xe5, 0x77, 0xb0, 0xbd,
  0x28, 0x72, 0xc9, 0xbe, 0x20, 0xd1, 0x13, 0x3f, 0x8f, 0x96, 0xb8, 0x3c,
  0xe6, 0x3c, 0x60, 0x3e, 0x7f, 0x79, 0x68, 0x3e, 0x0c, 0xcf, 0xf6, 0x3e,
  0xbb, 0x47, 0x03, 0x3e, 0x6b, 0xf5, 0x5d, 0xbe, 0x86, 0xfd, 0x8f, 0x3d,
  0x69, 0x4c, 0x64, 0x3e, 0x2f, 0x27, 0x6e, 0x3e, 0xd8, 0x0a, 0x0d, 0xbe,
  0x40, 0xd3, 0xa9, 0xbe, 0x24, 0xc7, 0x9b, 0xbe, 0x84, 0x6d, 0x12, 0xbe,
  0x46, 0x4f, 0xbe, 0xbe, 0xf3, 0xff, 0x61, 0xbe, 0x52, 0x91, 0xc7, 0xbc,
  0xf5, 0x2d, 0x82, 0x3d, 0xd6, 0x8d, 0x8a, 0x3e, 0x52, 0x76, 0x96, 0x3d,
  0xc6, 0x93, 0xd8, 0xbe, 0x98, 0x21, 0xa0, 0x3e, 0x30, 0xf5, 0xab, 0x3e,
  0xdf, 0x53, 0xb0, 0x3e, 0xc1, 0x1d, 0xaa, 0x3e, 0x4c, 0x1a, 0x48, 0x3f,
  0xab, 0x01, 0x14, 0x3f, 0xa7, 0x18, 0x09, 0x3f, 0xf3, 0xee, 0x4e, 0x3f,
  0xf5, 0x64, 0x0b, 0x3f, 0x85, 0x9f, 0x8f, 0x3e, 0xe0, 0x4a, 0x5f, 0x3f,
  0x24, 0x50, 0x0b, 0xbf, 0xd7, 0xb4, 0x0b, 0x3e, 0x66, 0x50, 0x6e, 0x3f,
  0x7c, 0xe1, 0xdd, 0x3e, 0x55, 0x4a, 0x12, 0x3f, 0x4a, 0x81, 0x9d, 0x3e,
  0x88, 0x1b, 0xb0, 0x3e, 0x0d, 0x73, 0x53, 0x3f, 0xc7, 0xc7, 0xc9, 0x3e,
  0x9a, 0xfe, 0x1c, 0x3f, 0x32, 0x5d, 0x38, 0x3f, 0x20, 0xdb, 0x12, 0x3f,
  0xa5, 0x6a, 0xc7, 0x3e, 0x02, 0xbf, 0x68, 0x3f, 0xbb, 0xab, 0xf9, 0x3d,
  0x58, 0x8b, 0x39, 0x3f, 0x02, 0x23, 0x51, 0xbf, 0x1b, 0x36, 0x48, 0x3f,
  0x8f, 0xd7, 0x5b, 0x3f, 0x03, 0xc0, 0x25, 0x3f, 0xc5, 0x9d, 0x35, 0x3f,
  0x78, 0x46, 0x3b, 0x3f, 0xb5, 0x33, 0xd4, 0xbb, 0x9e, 0x13, 0xe5, 0xbe,
  0x12, 0x08, 0xb8, 0x3d, 0xed, 0xcf, 0x80, 0x3d, 0xa7, 0x13, 0xeb, 0xbe,
  0xdf, 0xa4, 0x50, 0xbe, 0x50, 0xd8, 0x06, 0xbe, 0xd5, 0x2d, 0x4e, 0xbe,
  0x78, 0xa9, 0xb4, 0x3e, 0x58, 0xc9, 0xb0, 0xbd, 0x88, 0xc0, 0x88, 0xbd,
  0xdc, 0x2f, 0x26, 0xbe, 0xe1, 0x04, 0x92, 0xbe, 0x7d, 0x2d, 0xe0, 0xbe,
  0x62, 0x54, 0xa7, 0x3d, 0x17, 0x80, 0xd2, 0xbe, 0xe6, 0x6b, 0xb6, 0x3c,
  0xf3, 0x02, 0xd4, 0xbe, 0xcb, 0x7f, 0xb4, 0x3e, 0x21, 0xa3, 0xb6, 0x3d,
  0x4b, 0x67, 0xc2, 0x3e, 0xfb, 0xb9, 0x17, 0xbd, 0x86, 0x62, 0xd3, 0xbc,
  0x75, 0xe7, 0x47, 0xbe, 0xe1, 0x09, 0x20, 0xbe, 0xa9, 0x35, 0xaa, 0xbe,
  0x71, 0xc3, 0x7e, 0xbe, 0x51, 0x31, 0xde, 0xbe, 0xb6, 0x13, 0x7a, 0xbe,
  0xb3, 0x27, 0xa2, 0xbe, 0x21, 0x6d, 0xb3, 0x3d, 0xb8, 0x59, 0x60, 0xbe,
  0xec, 0x58, 0x80, 0x3e, 0xf1, 0xb4, 0x3a, 0xbe, 0x5a, 0x7b, 0x20, 0x3d,
  0x9a, 0x19, 0x9c, 0x3e, 0x1e, 0x90, 0x8b, 0xbe, 0x0b, 0x04, 0xfd, 0xbd,
  0xb9, 0xa5, 0x87, 0xbe, 0xf1, 0x87, 0x0a, 0xbe, 0x80, 0xc7, 0xe8, 0xbc,
  0x4f, 0x68, 0xa9, 0x3d, 0x78, 0x3b, 0x82, 0xbd, 0x45, 0x6a, 0xdd, 0xbe,
  0x28, 0x5e, 0xf2, 0x3d, 0x1a, 0x76, 0xc9, 0xbe, 0x19, 0xa5, 0x0e, 0x3e,
  0xb4, 0x5a, 0x18, 0x3e, 0x76, 0x57, 0xd6, 0xbe, 0x64, 0x9f, 0xa8, 0x3e,
  0xec, 0x17, 0x62, 0x3d, 0x2a, 0xe4, 0x82, 0xbe, 0x53, 0x67, 0xd0, 0x3e,
  0x90, 0xbf, 0xb2, 0x3e, 0x48, 0xce, 0x68, 0xbe, 0x54, 0xf2, 0xff, 0xbe,
  0x02, 0x4d, 0x54, 0xbe, 0x42, 0x40, 0x06, 0xbe, 0x3c, 0xda, 0x07, 0x3f,
  0xa4, 0x7d, 0x6d, 0x3e, 0x69, 0x7c, 0x15, 0xbf, 0x03, 0x7d, 0x47, 0x3e,
  0x29, 0xac, 0x1d, 0x3e, 0x1a, 0x56, 0xbd, 0x3e, 0x00, 0x00, 0x06, 0x00,
  0x08, 0x00, 0x04, 0x00, 0x06, 0x00, 0x00, 0x00, 0x04, 0x00, 0x00, 0x00,
  0x40, 0x00, 0x00, 0x00, 0xd3, 0xa5, 0x59, 0x3f, 0xfe, 0x65, 0x8e, 0x3f,
  0x94, 0xfb, 0x05, 0xbf, 0x55, 0x57, 0x34, 0xbf, 0x2f, 0x96, 0x5b, 0x3f,
  0xb7, 0x40, 0x60, 0x3f, 0xbd, 0xa7, 0x94, 0x3f, 0x67, 0x00, 0x04, 0xbf,
  0x00, 0x02, 0x0a, 0xbf, 0xca, 0x74, 0xd0, 0xbe, 0xad, 0x2e, 0x8e, 0x3f,
  0x2a, 0x26, 0x09, 0x3f, 0x38, 0xf7, 0x68, 0xbd, 0x6b, 0x59, 0x92, 0xbe,
  0x60, 0xba, 0xbd, 0xbe, 0x83, 0x8e, 0xa9, 0xbe, 0x30, 0xfb, 0xff, 0xff,
  0x34, 0xfb, 0xff, 0xff, 0x0f, 0x00, 0x00, 0x00, 0x4d, 0x4c, 0x49, 0x52,
  0x20, 0x43, 0x6f, 0x6e, 0x76, 0x65, 0x72, 0x74, 0x65, 0x64, 0x2e, 0x00,
  0x01, 0x00, 0x00, 0x00, 0x14, 0x00, 0x00, 0x00, 0x00, 0x00, 0x0e, 0x00,
  0x18, 0x00, 0x14, 0x00, 0x10, 0x00, 0x0c, 0x00, 0x08, 0x00, 0x04, 0x00,
  0x0e, 0x00, 0x00, 0x00, 0x14, 0x00, 0x00, 0x00, 0x1c, 0x00, 0x00, 0x00,
  0xd8, 0x00, 0x00, 0x00, 0xdc, 0x00, 0x00, 0x00, 0xe0, 0x00, 0x00, 0x00,
  0x04, 0x00, 0x00, 0x00, 0x6d, 0x61, 0x69, 0x6e, 0x00, 0x00, 0x00, 0x00,
  0x03, 0x00, 0x00, 0x00, 0x80, 0x00, 0x00, 0x00, 0x38, 0x00, 0x00, 0x00,
  0x04, 0x00, 0x00, 0x00, 0x9a, 0xff, 0xff, 0xff, 0x10, 0x00, 0x00, 0x00,
  0x00, 0x00, 0x00, 0x08, 0x0c, 0x00, 0x00, 0x00, 0x10, 0x00, 0x00, 0x00,
  0xac, 0xfb, 0xff, 0xff, 0x01, 0x00, 0x00, 0x00, 0x09, 0x00, 0x00, 0x00,
  0x03, 0x00, 0x00, 0x00, 0x08, 0x00, 0x00, 0x00, 0x01, 0x00, 0x00, 0x00,
  0x03, 0x00, 0x00, 0x00, 0xca, 0xff, 0xff, 0xff, 0x10, 0x00, 0x00, 0x00,
  0x00, 0x00, 0x00, 0x08, 0x10, 0x00, 0x00, 0x00, 0x14, 0x00, 0x00, 0x00,
  0xba, 0xff, 0xff, 0xff, 0x00, 0x00, 0x00, 0x01, 0x01, 0x00, 0x00, 0x00,
  0x08, 0x00, 0x00, 0x00, 0x03, 0x00, 0x00, 0x00, 0x07, 0x00, 0x00, 0x00,
  0x02, 0x00, 0x00, 0x00, 0x04, 0x00, 0x00, 0x00, 0x00, 0x00, 0x0e, 0x00,
  0x16, 0x00, 0x00, 0x00, 0x10, 0x00, 0x0c, 0x00, 0x0b, 0x00, 0x04, 0x00,
  0x0e, 0x00, 0x00, 0x00, 0x18, 0x00, 0x00, 0x00, 0x00, 0x00, 0x00, 0x08,
  0x18, 0x00, 0x00, 0x00, 0x1c, 0x00, 0x00, 0x00, 0x00, 0x00, 0x06, 0x00,
  0x08, 0x00, 0x07, 0x00, 0x06, 0x00, 0x00, 0x00, 0x00, 0x00, 0x00, 0x01,
  0x01, 0x00, 0x00, 0x00, 0x07, 0x00, 0x00, 0x00, 0x03, 0x00, 0x00, 0x00,
  0x00, 0x00, 0x00, 0x00, 0x06, 0x00, 0x00, 0x00, 0x05, 0x00, 0x00, 0x00,
  0x01, 0x00, 0x00, 0x00, 0x09, 0x00, 0x00, 0x00, 0x01, 0x00, 0x00, 0x00,
  0x00, 0x00, 0x00, 0x00, 0x0a, 0x00, 0x00, 0x00, 0x7c, 0x03, 0x00, 0x00,
  0x24, 0x03, 0x00, 0x00, 0xcc, 0x02, 0x00, 0x00, 0x90, 0x02, 0x00, 0x00,
  0x34, 0x02, 0x00, 0x00, 0xdc, 0x01, 0x00, 0x00, 0x90, 0x01, 0x00, 0x00,
  0xfc, 0x00, 0x00, 0x00, 0x60, 0x00, 0x00, 0x00, 0x04, 0x00, 0x00, 0x00,
  0xc2, 0xfc, 0xff, 0xff, 0x00, 0x00, 0x00, 0x01, 0x14, 0x00, 0x00, 0x00,
  0x1c, 0x00, 0x00, 0x00, 0x1c, 0x00, 0x00, 0x00, 0x0a, 0x00, 0x00, 0x00,
  0x34, 0x00, 0x00, 0x00, 0x02, 0x00, 0x00, 0x00, 0xff, 0xff, 0xff, 0xff,
  0x01, 0x00, 0x00, 0x00, 0xac, 0xfc, 0xff, 0xff, 0x1b, 0x00, 0x00, 0x00,
  0x53, 0x74, 0x61, 0x74, 0x65, 0x66, 0x75, 0x6c, 0x50, 0x61, 0x72, 0x74,
  0x69, 0x74, 0x69, 0x6f, 0x6e, 0x65, 0x64, 0x43, 0x61, 0x6c, 0x6c, 0x5f,
  0x31, 0x3a, 0x30, 0x00, 0x02, 0x00, 0x00, 0x00, 0x01, 0x00, 0x00, 0x00,
  0x01, 0x00, 0x00, 0x00, 0x1a, 0xfd, 0xff, 0xff, 0x00, 0x00, 0x00, 0x01,
  0x14, 0x00, 0x00, 0x00, 0x1c, 0x00, 0x00, 0x00, 0x1c, 0x00, 0x00, 0x00,
  0x09, 0x00, 0x00, 0x00, 0x74, 0x00, 0x00, 0x00, 0x02, 0x00, 0x00, 0x00,
  0xff, 0xff, 0xff, 0xff, 0x10, 0x00, 0x00, 0x00, 0x04, 0xfd, 0xff, 0xff,
  0x58, 0x00, 0x00, 0x00, 0x73, 0x65, 0x71, 0x75, 0x65, 0x6e, 0x74, 0x69,
  0x61, 0x6c, 0x5f, 0x31, 0x2f, 0x64, 0x65, 0x6e, 0x73, 0x65, 0x5f, 0x31,
  0x5f, 0x32, 0x2f, 0x4d, 0x61, 0x74, 0x4d, 0x75, 0x6c, 0x3b, 0x73, 0x65,
  0x71, 0x75, 0x65, 0x6e, 0x74, 0x69, 0x61, 0x6c, 0x5f, 0x31, 0x2f, 0x64,
  0x65, 0x6e, 0x73, 0x65, 0x5f, 0x31, 0x5f, 0x32, 0x2f, 0x52, 0x65, 0x6c,
  0x75, 0x3b, 0x73, 0x65, 0x71, 0x75, 0x65, 0x6e, 0x74, 0x69, 0x61, 0x6c,
  0x5f, 0x31, 0x2f, 0x64, 0x65, 0x6e, 0x73, 0x65, 0x5f, 0x31, 0x5f, 0x32,
  0x2f, 0x42, 0x69, 0x61, 0x73, 0x41, 0x64, 0x64, 0x00, 0x00, 0x00, 0x00,
  0x02, 0x00, 0x00, 0x00, 0x01, 0x00, 0x00, 0x00, 0x10, 0x00, 0x00, 0x00,
  0xb2, 0xfd, 0xff, 0xff, 0x00, 0x00, 0x00, 0x01, 0x14, 0x00, 0x00, 0x00,
  0x1c, 0x00, 0x00, 0x00, 0x1c, 0x00, 0x00, 0x00, 0x08, 0x00, 0x00, 0x00,
  0x6c, 0x00, 0x00, 0x00, 0x02, 0x00, 0x00, 0x00, 0xff, 0xff, 0xff, 0xff,
  0x10, 0x00, 0x00, 0x00, 0x9c, 0xfd, 0xff, 0xff, 0x52, 0x00, 0x00, 0x00,
  0x73, 0x65, 0x71, 0x75, 0x65, 0x6e, 0x74, 0x69, 0x61, 0x6c, 0x5f, 0x31,
  0x2f, 0x64, 0x65, 0x6e, 0x73, 0x65, 0x5f, 0x31, 0x2f, 0x4d, 0x61, 0x74,
  0x4d, 0x75, 0x6c, 0x3b, 0x73, 0x65, 0x71, 0x75, 0x65, 0x6e, 0x74, 0x69,
  0x61, 0x6c, 0x5f, 0x31, 0x2f, 0x64, 0x65, 0x6e, 0x73, 0x65, 0x5f, 0x31,
  0x2f, 0x52, 0x65, 0x6c, 0x75, 0x3b, 0x73, 0x65, 0x71, 0x75, 0x65, 0x6e,
  0x74, 0x69, 0x61, 0x6c, 0x5f, 0x31, 0x2f, 0x64, 0x65, 0x6e, 0x73, 0x65,
  0x5f, 0x31, 0x2f, 0x42, 0x69, 0x61, 0x73, 0x41, 0x64, 0x64, 0x00, 0x00,
  0x02, 0x00, 0x00, 0x00, 0x01, 0x00, 0x00, 0x00, 0x10, 0x00, 0x00, 0x00,
  0x96, 0xfe, 0xff, 0xff, 0x00, 0x00, 0x00, 0x01, 0x10, 0x00, 0x00, 0x00,
  0x10, 0x00, 0x00, 0x00, 0x07, 0x00, 0x00, 0x00, 0x28, 0x00, 0x00, 0x00,
  0x1c, 0xfe, 0xff, 0xff, 0x1b, 0x00, 0x00, 0x00, 0x73, 0x65, 0x71, 0x75,
  0x65, 0x6e, 0x74, 0x69, 0x61, 0x6c, 0x5f, 0x31, 0x2f, 0x64, 0x65, 0x6e,
  0x73, 0x65, 0x5f, 0x31, 0x2f, 0x4d, 0x61, 0x74, 0x4d, 0x75, 0x6c, 0x00,
  0x02, 0x00, 0x00, 0x00, 0x10, 0x00, 0x00, 0x00, 0x03, 0x00, 0x00, 0x00,
  0xde, 0xfe, 0xff, 0xff, 0x00, 0x00, 0x00, 0x01, 0x10, 0x00, 0x00, 0x00,
  0x10, 0x00, 0x00, 0x00, 0x06, 0x00, 0x00, 0x00, 0x38, 0x00, 0x00, 0x00,
  0x64, 0xfe, 0xff, 0xff, 0x2b, 0x00, 0x00, 0x00, 0x73, 0x65, 0x71, 0x75,
  0x65, 0x6e, 0x74, 0x69, 0x61, 0x6c, 0x5f, 0x31, 0x2f, 0x64, 0x65, 0x6e,
  0x73, 0x65, 0x5f, 0x31, 0x2f, 0x42, 0x69, 0x61, 0x73, 0x41, 0x64, 0x64,
  0x2f, 0x52, 0x65, 0x61, 0x64, 0x56, 0x61, 0x72, 0x69, 0x61, 0x62, 0x6c,
  0x65, 0x4f, 0x70, 0x00, 0x01, 0x00, 0x00, 0x00, 0x10, 0x00, 0x00, 0x00,
  0x32, 0xff, 0xff, 0xff, 0x00, 0x00, 0x00, 0x01, 0x10, 0x00, 0x00, 0x00,
  0x10, 0x00, 0x00, 0x00, 0x05, 0x00, 0x00, 0x00, 0x3c, 0x00, 0x00, 0x00,
  0xb8, 0xfe, 0xff, 0xff, 0x2d, 0x00, 0x00, 0x00, 0x73, 0x65, 0x71, 0x75,
  0x65, 0x6e, 0x74, 0x69, 0x61, 0x6c, 0x5f, 0x31, 0x2f, 0x64, 0x65, 0x6e,
  0x73, 0x65, 0x5f, 0x31, 0x5f, 0x32, 0x2f, 0x42, 0x69, 0x61, 0x73, 0x41,
  0x64, 0x64, 0x2f, 0x52, 0x65, 0x61, 0x64, 0x56, 0x61, 0x72, 0x69, 0x61,
  0x62, 0x6c, 0x65, 0x4f, 0x70, 0x00, 0x00, 0x00, 0x01, 0x00, 0x00, 0x00,
  0x10, 0x00, 0x00, 0x00, 0x8a, 0xff, 0xff, 0xff, 0x00, 0x00, 0x00, 0x01,
  0x10, 0x00, 0x00, 0x00, 0x10, 0x00, 0x00, 0x00, 0x04, 0x00, 0x00, 0x00,
  0x1c, 0x00, 0x00, 0x00, 0x10, 0xff, 0xff, 0xff, 0x0f, 0x00, 0x00, 0x00,
  0x61, 0x72, 0x69, 0x74, 0x68, 0x2e, 0x63, 0x6f, 0x6e, 0x73, 0x74, 0x61,
  0x6e, 0x74, 0x32, 0x00, 0x01, 0x00, 0x00, 0x00, 0x01, 0x00, 0x00, 0x00,
  0xc2, 0xff, 0xff, 0xff, 0x00, 0x00, 0x00, 0x01, 0x10, 0x00, 0x00, 0x00,
  0x10, 0x00, 0x00, 0x00, 0x03, 0x00, 0x00, 0x00, 0x1c, 0x00, 0x00, 0x00,
  0x48, 0xff, 0xff, 0xff, 0x0f, 0x00, 0x00, 0x00, 0x61, 0x72, 0x69, 0x74,
  0x68, 0x2e, 0x63, 0x6f, 0x6e, 0x73, 0x74, 0x61, 0x6e, 0x74, 0x31, 0x00,
  0x02, 0x00, 0x00, 0x00, 0x10, 0x00, 0x00, 0x00, 0x10, 0x00, 0x00, 0x00,
  0x00, 0x00, 0x16, 0x00, 0x18, 0x00, 0x14, 0x00, 0x00, 0x00, 0x10, 0x00,
  0x0c, 0x00, 0x08, 0x00, 0x00, 0x00, 0x00, 0x00, 0x00, 0x00, 0x07, 0x00,
  0x16, 0x00, 0x00, 0x00, 0x00, 0x00, 0x00, 0x01, 0x10, 0x00, 0x00, 0x00,
  0x10, 0x00, 0x00, 0x00, 0x02, 0x00, 0x00, 0x00, 0x1c, 0x00, 0x00, 0x00,
  0x9c, 0xff, 0xff, 0xff, 0x0e, 0x00, 0x00, 0x00, 0x61, 0x72, 0x69, 0x74,
  0x68, 0x2e, 0x63, 0x6f, 0x6e, 0x73, 0x74, 0x61, 0x6e, 0x74, 0x00, 0x00,
  0x02, 0x00, 0x00, 0x00, 0x01, 0x00, 0x00, 0x00, 0x10, 0x00, 0x00, 0x00,
  0x00, 0x00, 0x16, 0x00, 0x1c, 0x00, 0x18, 0x00, 0x00, 0x00, 0x14, 0x00,
  0x10, 0x00, 0x0c, 0x00, 0x00, 0x00, 0x00, 0x00, 0x08, 0x00, 0x07, 0x00,
  0x16, 0x00, 0x00, 0x00, 0x00, 0x00, 0x00, 0x01, 0x14, 0x00, 0x00, 0x00,
  0x20, 0x00, 0x00, 0x00, 0x20, 0x00, 0x00, 0x00, 0x01, 0x00, 0x00, 0x00,
  0x3c, 0x00, 0x00, 0x00, 0x02, 0x00, 0x00, 0x00, 0xff, 0xff, 0xff, 0xff,
  0x03, 0x00, 0x00, 0x00, 0x04, 0x00, 0x04, 0x00, 0x04, 0x00, 0x00, 0x00,
  0x1e, 0x00, 0x00, 0x00, 0x73, 0x65, 0x72, 0x76, 0x69, 0x6e, 0x67, 0x5f,
  0x64, 0x65, 0x66, 0x61, 0x75, 0x6c, 0x74, 0x5f, 0x6b, 0x65, 0x72, 0x61,
  0x73, 0x5f, 0x74, 0x65, 0x6e, 0x73, 0x6f, 0x72, 0x3a, 0x30, 0x00, 0x00,
  0x02, 0x00, 0x00, 0x00, 0x01, 0x00, 0x00, 0x00, 0x03, 0x00, 0x00, 0x00,
  0x01, 0x00, 0x00, 0x00, 0x10, 0x00, 0x00, 0x00, 0x0c, 0x00, 0x0c, 0x00,
  0x0b, 0x00, 0x00, 0x00, 0x00, 0x00, 0x04, 0x00, 0x0c, 0x00, 0x00, 0x00,
  0x09, 0x00, 0x00, 0x00, 0x00, 0x00, 0x00, 0x09
};
unsigned int irrigation_model_tflite_len = 3296;
